00000000011101100011000111100010
00000000000000000000110000000000
00000000000000000000000000010111
00000000100011010001001101110001
11111111111111110110111100000000
11111111111111111111111111100100
00000000100010101110100110010010
00000000000000000010100000000000
00000000000000000000000000001000
00000000011100011111101000011111
11111111111111111000101000000000
11111111111111111111111111111010
00000000011010000000110010101100
00000000000000000001011110000000
00000000000000000000000000010010
00000000011111001000010110000111
00000000000000000000010110000000
00000000000000000000000000000101
00000000011011101001110001010101
00000000000000000000101000000000
00000000000000000000000000001000
00000000011111001001110110000000
00000000000000000000010000000000
00000000000000000000000000000101
00000000010111101111101100001010
11111111111111101000001000000000
00000000000000000000000000000111
00000000010101111100100110010110
11111111111111011000010010000000
11111111111111111111111111111001
00000000011111110111111010100111
00000000000000000010101110000000
00000000000000000000000000000100
00000000100110100000010000110010
11111111111111011101001100000000
11111111111111111111111111110110
00000000010101110100011001110001
11111111111111100010101110000000
11111111111111111111111111111110
00000000101001010100101111100100
11111111111111110101101110000000
00000000000000000000000000000000
00000000100001011000110010100011
11111111111111111110001100000000
00000000000000000000000000000111
00000000010000100101011101101010
11111111111111110111000100000000
00000000000000000000000000000010
00000000011010100100011010101101
00000000000000001101101000000000
00000000000000000000000000001111
00000000010011101000111001000001
11111111111111100010010000000000
11111111111111111111111111111111
00000000011001010110101010110100
11111111111111110010010010000000
11111111111111111111111111101110
00000000010101000000001101010011
00000000000000010101110010000000
11111111111111111111111111111110
00000000101001110010111111100111
00000000000000101111010110000000
11111111111111111111111111111001
00000000110111011110000011100111
00000000000000000101010100000000
00000000000000000000000000000011
00000000111010010111011101000000
00000000000000000000111000000000
11111111111111111111111111110101
00000000101011111100010110011000
00000000000000000001110110000000
11111111111111111111111111111101
00000000101001100110011000100001
11111111111111110001111000000000
11111111111111111111111111111110
00000000101001110011000111000011
00000000000000011001101100000000
00000000000000000000000000000101
00000000101000110111010000011100
00000000000000000010011000000000
00000000000000000000000000000100
00000000101110100011011111101111
11111111111111111110000110000000
00000000000000000000000000000100
00000000110001001100101011011010
11111111111111110100101100000000
00000000000000000000000000000000
00000000100100000111100101111100
11111111111111111000111000000000
00000000000000000000000000000111
00000000110010001000110000010101
00000000000000100011101000000000
11111111111111111111111111111111
00000000100010000100100111000000
00000000000000000010000100000000
11111111111111111111111111111110
00000000100010111000110110110011
00000000000000010001101000000000
00000000000000000000000000000111
00000001000000000100100101001011
00000000000000001100100000000000
11111111111111111111111111111100
00000000111111111110010000011001
00000000000000000101011010000000
00000000000000000000000000000011
00000000101100000011111010010000
00000000000000000110011110000000
00000000000000000000000000000000
00000000001110101011001110101101
00000000000010101011111100000000
11111111111111111111111111111110
00000000001110101011001110101101
11111111111110111101010110000000
00000000000000000000000000000001
00000000001110101011001110101101
11111111111110000101100010000000
00000000000000000000000000000001
00000000001110101011001110101101
11111111111100110000010100000000
00000000000000000000000000000001
00000000001110101011001110101101
11111111111110100101011100000000
00000000000000000000000000000001
00000000001110101011001110101101
11111111111100000101111110000000
00000000000000000000000000000110
00000000001110101011001110101101
11111111111101101010100100000000
00000000000000000000000000000100
00000000001110101011001110101101
00000000000001001111110110000000
11111111111111111111111111111111
00000000001110101011001110101101
11111111111101010101100110000000
00000000000000000000000000000100
00000000001110101011001110101101
00000000000010100001010010000000
11111111111111111111111111111111
00000000001110101011001110101101
11111111111100100111111110000000
00000000000000000000000000000101
00000000001110101011001110101101
00000000000010011110110010000000
11111111111111111111111111111111
00000001010010111011010000100010
00000000000000000100010110000000
00000000000000000000000000000000
00000001010010111011010000100010
11111111111111111110100100000000
00000000000000000000000000000001
00000001010010111011010000100010
00000000000000000000110100000000
00000000000000000000000000000000
00000001010010111011010000100010
11111111111111111011110110000000
00000000000000000000000000000001
00000001010010111011010000100010
11111111111111111111001010000000
00000000000000000000000000000001
00000001010010111011010000100010
11111111111111110110010010000000
00000000000000000000000000000000
00000001010010111011010000100010
00000000000000000010010010000000
00000000000000000000000000000000
00000001010010111011010000100010
00000000000000000111000010000000
00000000000000000000000000000001
00000000111101001100101110110010
00000000000000000011000010000000
00000000000000000000000000000000
00000000111101001100101110110010
00000000000000001000010100000000
00000000000000000000000000000000
